{
  "version": "1.0",
  "truncation": null,
  "padding": null,
  "added_tokens": [
    {
      "id": 0,
      "content": "<|endoftext|>",
      "single_word": false,
      "lstrip": false,
      "rstrip": false,
      "normalized": false,
      "special": true
    }
  ],
  "normalizer": null,
  "pre_tokenizer": {
    "type": "ByteLevel",
    "add_prefix_space": false,
    "trim_offsets": true,
    "use_regex": true
  },
  "post_processor": {
    "type": "ByteLevel",
    "add_prefix_space": true,
    "trim_offsets": false,
    "use_regex": true
  },
  "decoder": {
    "type": "ByteLevel",
    "add_prefix_space": true,
    "trim_offsets": true,
    "use_regex": true
  },
  "model": {
    "type": "BPE",
    "dropout": null,
    "unk_token": null,
    "continuing_subword_prefix": null,
    "end_of_word_suffix": null,
    "fuse_unk": false,
    "byte_fallback": false,
    "ignore_merges": false,
    "vocab": {
      "<|endoftext|>": 0,
      "!": 1,
      "\"": 2,
      "#": 3,
      "$": 4,
      "%": 5,
      "&": 6,
      "'": 7,
      "(": 8,
      ")": 9,
      "*": 10,
      "+": 11,
      ",": 12,
      "-": 13,
      ".": 14,
      "/": 15,
      "0": 16,
      "1": 17,
      "2": 18,
      "3": 19,
      "4": 20,
      "5": 21,
      "6": 22,
      "7": 23,
      "8": 24,
      "9": 25,
      ":": 26,
      ";": 27,
      "<": 28,
      "=": 29,
      ">": 30,
      "?": 31,
      "@": 32,
      "A": 33,
      "B": 34,
      "C": 35,
      "D": 36,
      "E": 37,
      "F": 38,
      "G": 39,
      "H": 40,
      "I": 41,
      "J": 42,
      "K": 43,
      "L": 44,
      "M": 45,
      "N": 46,
      "O": 47,
      "P": 48,
      "Q": 49,
      "R": 50,
      "S": 51,
      "T": 52,
      "U": 53,
      "V": 54,
      "W": 55,
      "X": 56,
      "Y": 57,
      "Z": 58,
      "[": 59,
      "\\": 60,
      "]": 61,
      "^": 62,
      "_": 63,
      "`": 64,
      "a": 65,
      "b": 66,
      "c": 67,
      "d": 68,
      "e": 69,
      "f": 70,
      "g": 71,
      "h": 72,
      "i": 73,
      "j": 74,
      "k": 75,
      "l": 76,
      "m": 77,
      "n": 78,
      "o": 79,
      "p": 80,
      "q": 81,
      "r": 82,
      "s": 83,
      "t": 84,
      "u": 85,
      "v": 86,
      "w": 87,
      "x": 88,
      "y": 89,
      "z": 90,
      "{": 91,
      "|": 92,
      "}": 93,
      "~": 94,
      "¡": 95,
      "¢": 96,
      "£": 97,
      "¤": 98,
      "¥": 99,
      "¦": 100,
      "§": 101,
      "¨": 102,
      "©": 103,
      "ª": 104,
      "«": 105,
      "¬": 106,
      "®": 107,
      "¯": 108,
      "°": 109,
      "±": 110,
      "²": 111,
      "³": 112,
      "´": 113,
      "µ": 114,
      "¶": 115,
      "·": 116,
      "¸": 117,
      "¹": 118,
      "º": 119,
      "»": 120,
      "¼": 121,
      "½": 122,
      "¾": 123,
      "¿": 124,
      "À": 125,
      "Á": 126,
      "Â": 127,
      "Ã": 128,
      "Ä": 129,
      "Å": 130,
      "Æ": 131,
      "Ç": 132,
      "È": 133,
      "É": 134,
      "Ê": 135,
      "Ë": 136,
      "Ì": 137,
      "Í": 138,
      "Î": 139,
      "Ï": 140,
      "Ð": 141,
      "Ñ": 142,
      "Ò": 143,
      "Ó": 144,
      "Ô": 145,
      "Õ": 146,
      "Ö": 147,
      "×": 148,
      "Ø": 149,
      "Ù": 150,
      "Ú": 151,
      "Û": 152,
      "Ü": 153,
      "Ý": 154,
      "Þ": 155,
      "ß": 156,
      "à": 157,
      "á": 158,
      "â": 159,
      "ã": 160,
      "ä": 161,
      "å": 162,
      "æ": 163,
      "ç": 164,
      "è": 165,
      "é": 166,
      "ê": 167,
      "ë": 168,
      "ì": 169,
      "í": 170,
      "î": 171,
      "ï": 172,
      "ð": 173,
      "ñ": 174,
      "ò": 175,
      "ó": 176,
      "ô": 177,
      "õ": 178,
      "ö": 179,
      "÷": 180,
      "ø": 181,
      "ù": 182,
      "ú": 183,
      "û": 184,
      "ü": 185,
      "ý": 186,
      "þ": 187,
      "ÿ": 188,
      "Ā": 189,
      "ā": 190,
      "Ă": 191,
      "ă": 192,
      "Ą": 193,
      "ą": 194,
      "Ć": 195,
      "ć": 196,
      "Ĉ": 197,
      "ĉ": 198,
      "Ċ": 199,
      "ċ": 200,
      "Č": 201,
      "č": 202,
      "Ď": 203,
      "ď": 204,
      "Đ": 205,
      "đ": 206,
      "Ē": 207,
      "ē": 208,
      "Ĕ": 209,
      "ĕ": 210,
      "Ė": 211,
      "ė": 212,
      "Ę": 213,
      "ę": 214,
      "Ě": 215,
      "ě": 216,
      "Ĝ": 217,
      "ĝ": 218,
      "Ğ": 219,
      "ğ": 220,
      "Ġ": 221,
      "ġ": 222,
      "Ģ": 223,
      "ģ": 224,
      "Ĥ": 225,
      "ĥ": 226,
      "Ħ": 227,
      "ħ": 228,
      "Ĩ": 229,
      "ĩ": 230,
      "Ī": 231,
      "ī": 232,
      "Ĭ": 233,
      "ĭ": 234,
      "Į": 235,
      "į": 236,
      "İ": 237,
      "ı": 238,
      "Ĳ": 239,
      "ĳ": 240,
      "Ĵ": 241,
      "ĵ": 242,
      "Ķ": 243,
      "ķ": 244,
      "ĸ": 245,
      "Ĺ": 246,
      "ĺ": 247,
      "Ļ": 248,
      "ļ": 249,
      "Ľ": 250,
      "ľ": 251,
      "Ŀ": 252,
      "ŀ": 253,
      "Ł": 254,
      "ł": 255,
      "Ń": 256,
      "Ġs": 257,
      "Ġc": 258,
      "Ġp": 259,
      "Ġd": 260,
      "Ġl": 261,
      "re": 262,
      "ra": 263,
      "in": 264,
      "ta": 265,
      "un": 266,
      "Ġe": 267,
      "on": 268,
      "Ġa": 269,
      "en": 270,
      "ri": 271,
      "to": 272,
      "ma": 273,
      "Ġun": 274,
      "er": 275,
      "Ġn": 276,
      "ar": 277,
      "te": 278,
      "he": 279,
      "va": 280,
      "ia": 281,
      "Ġf": 282,
      "qu": 283,
      "Ġdi": 284,
      "Ġla": 285,
      "Ġt": 286,
      "es": 287,
      "ol": 288,
      "Ġi": 289,
      "Ġqu": 290,
      "or": 291,
      "Ġv": 292,
      "Ġma": 293,
      "no": 294,
      "om": 295,
      "do": 296,
      "Ġche": 297,
      "el": 298,
      "ro": 299,
      "ic": 300,
      "le": 301,
      "li": 302,
      "Ġil": 303,
      "ce": 304,
      "Ġin": 305,
      "Ġri": 306,
      "Ġse": 307,
      "Ġuna": 308,
      "se": 309,
      "Ġper": 310,
      "ti": 311,
      "Ã²": 312,
      "Ġg": 313,
      "Ġm": 314,
      "Ġsi": 315,
      "Ġle": 316,
      "ou": 317,
      "Ġpa": 318,
      "Ġnon": 319,
      "la": 320,
      "ve": 321,
      "Ġb": 322,
      "Ġsu": 323,
      "Ġca": 324,
      "Ġcom": 325,
      "at": 326,
      "di": 327,
      "hi": 328,
      "Ġo": 329,
      "Ġre": 330,
      "ina": 331,
      "ot": 332,
      "sa": 333,
      "ĠM": 334,
      "Ġpi": 335,
      "tan": 336,
      "Ġan": 337,
      "Ġqua": 338,
      "ca": 339,
      "za": 340,
      "Ġ\"": 341,
      "Ġh": 342,
      "Ġcon": 343,
      "Ġda": 344,
      "Ġde": 345,
      "olo": 346,
      "Ġcome": 347,
      "ch": 348,
      "gn": 349,
      "so": 350,
      "ten": 351,
      "ĠL": 352,
      "Ġsc": 353,
      "Ġdo": 354,
      "Ġera": 355,
      "ba": 356,
      "da": 357,
      "de": 358,
      "go": 359,
      "lo": 360,
      "ui": 361,
      "Ġw": 362,
      "Ġy": 363,
      "Ġdel": 364,
      "ine": 365,
      "one": 366,
      "Ġal": 367,
      "man": 368,
      "arta": 369,
      "\",": 370,
      "gl": 371,
      "is": 372,
      "it": 373,
      "me": 374,
      "mo": 375,
      "pe": 376,
      "pri": 377,
      "us": 378,
      "ura": 379,
      "ĠP": 380,
      "ĠS": 381,
      "Ġsa": 382,
      "Ġchi": 383,
      "Ġpar": 384,
      "inc": 385,
      "ono": 386,
      "aro": 387,
      "Ġfa": 388,
      "ĠMarta": 389,
      "as": 390,
      "cri": 391,
      "era": 392,
      "gli": 393,
      "io": 394,
      "mb": 395,
      "tra": 396,
      "uo": 397,
      "Ġto": 398,
      "Ġsol": 399,
      "Ġpro": 400,
      "Ġlo": 401,
      "ent": 402,
      "ente": 403,
      "Ġfin": 404,
      "Ġfaro": 405,
      "ese": 406,
      "Ġquel": 407,
      "gni": 408,
      "bb": 409,
      "cc": 410,
      "che": 411,
      "der": 412,
      "ga": 413,
      "ge": 414,
      "ito": 415,
      "ite": 416,
      "len": 417,
      "mp": 418,
      "os": 419,
      "pp": 420,
      "si": 421,
      "uc": 422,
      "vi": 423,
      "Ã¨": 424,
      "ĠT": 425,
      "Ġta": 426,
      "ĠÃ¨": 427,
      "Ġstan": 428,
      "Ġpen": 429,
      "tava": 430,
      "Ġel": 431,
      "Ġes": 432,
      "Ġav": 433,
      "Ġnot": 434,
      "Ġthe": 435,
      "ole": 436,
      "Ġvia": 437,
      "Ġmag": 438,
      "Ġmare": 439,
      "ico": 440,
      "veva": 441,
      "Ġogni": 442,
      "Ġpiu": 443,
      "Ġha": 444,
      "\":": 445,
      "Il": 446,
      "La": 447,
      "ay": 448,
      "co": 449,
      "ff": 450,
      "ht": 451,
      "ira": 452,
      "iÃ²": 453,
      "lla": 454,
      "ne": 455,
      "ndo": 456,
      "oi": 457,
      "odo": 458,
      "uto": 459,
      "uce": 460,
      "zza": 461,
      "Ã©": 462,
      "Ã¬": 463,
      "ĠA": 464,
      "ĠE": 465,
      "Ġj": 466,
      "Ġra": 467,
      "Ġluce": 468,
      "res": 469,
      "ing": 470,
      "inu": 471,
      "uno": 472,
      "endo": 473,
      "ria": 474,
      "Ġnom": 475,
      "tes": 476,
      "Ġfor": 477,
      "Ġth": 478,
      "Ġtro": 479,
      "ess": 480,
      "esto": 481,
      "Ġque": 482,
      "Ġvuo": 483,
      "lis": 484,
      "ceva": 485,
      "Ġsed": 486,
      "Ġpers": 487,
      "Ġbe": 488,
      "Ġcominc": 489,
      "atto": 490,
      "Ġres": 491,
      "tanto": 492,
      "Ġqual": 493,
      "Ġquader": 494,
      "ĠLe": 495,
      "Ġyou": 496,
      "gline": 497,
      "Ġsoltanto": 498,
      "Ġvuota": 499,
      "Ġcomincia": 500,
      "Ġquaderno": 501,
      "\"]": 502,
      "Gen": 503,
      "Re": 504,
      "The": 505,
      "[\"": 506,
      "alis": 507,
      "agline": 508,
      "cor": 509,
      "cca": 510,
      "gina": 511,
      "ght": 512,
      "iu": 513,
      "ire": 514,
      "ior": 515,
      "ione": 516,
      "mi": 517,
      "na": 518,
      "ni": 519,
      "ote": 520,
      "po": 521,
      "tta": 522,
      "ul": 523,
      "ure": 524,
      "uma": 525,
      "uar": 526,
      "vo": 527,
      "ven": 528,
      "ver": 529,
      "vÃ²": 530,
      "zione": 531,
      "Ã¹": 532,
      "ĠD": 533,
      "ĠJ": 534,
      "Ġou": 535,
      "Ġ[\"": 536,
      "Ġsp": 537,
      "Ġsta": 538,
      "Ġsen": 539,
      "Ġsve": 540,
      "Ġsot": 541,
      "Ġstes": 542,
      "Ġch": 543,
      "Ġcar": 544,
      "Ġcui": 545,
      "Ġpre": 546,
      "Ġpun": 547,
      "Ġpri": 548,
      "Ġlun": 549,
      "reno": 550,
      "rad": 551,
      "rava": 552,
      "Ġen": 553,
      "Ġet": 554,
      "ona": 555,
      "ondo": 556,
      "Ġar": 557,
      "Ġaveva": 558,
      "Ġune": 559,
      "ero": 560,
      "Ġna": 561,
      "Ġne": 562,
      "ardi": 563,
      "vano": 564,
      "que": 565,
      "escri": 566,
      "Ġit": 567,
      "Ġquesto": 568,
      "Ġvi": 569,
      "Ġvol": 570,
      "Ġmai": 571,
      "Ġmale": 572,
      "Ġriman": 573,
      "Ġricor": 574,
      "Ġseg": 575,
      "Ġsemp": 576,
      "Ġgli": 577,
      "Ġlei": 578,
      "our": 579,
      "Ġpara": 580,
      "Ġpaese": 581,
      "Ġpagina": 582,
      "Ġsua": 583,
      "Ġcap": 584,
      "ĠpiÃ¹": 585,
      "Ġanni": 586,
      "chÃ©": 587,
      "Ġsco": 588,
      "Ġdove": 589,
      "Ġdopo": 590,
      "dare": 591,
      "Ġway": 592,
      "glia": 593,
      "Ġparole": 594,
      "Ġfaceva": 595,
      "Ġtor": 596,
      "Ġpropri": 597,
      "Ġquella": 598,
      "bbe": 599,
      "itolo": 600,
      "ĠTagline": 601,
      "Ġstanza": 602,
      "Ġmagico": 603,
      "Ġhad": 604,
      "essuno": 605,
      "Ġsedia": 606,
      "alismo": 607,
      "Ġprima": 608,
      "Ġlungo": 609,
      "ardim": 610,
      "Ġsempre": 611,
      "Con": 612,
      "Chi": 613,
      "El": 614,
      "Sa": 615,
      "Scri": 616,
      "Titolo": 617,
      "ago": 618,
      "bre": 619,
      "bba": 620,
      "cio": 621,
      "dri": 622,
      "del": 623,
      "dic": 624,
      "dÃ²": 625,
      "eh": 626,
      "ep": 627,
      "ex": 628,
      "ere": 629,
      "edi": 630,
      "ede": 631,
      "fa": 632,
      "fo": 633,
      "for": 634,
      "fus": 635,
      "gg": 636,
      "gi": 637,
      "gra": 638,
      "gge": 639,
      "ien": 640,
      "ight": 641,
      "lia": 642,
      "lle": 643,
      "mm": 644,
      "mes": 645,
      "ment": 646,
      "nd": 647,
      "nic": 648,
      "nÃ²": 649,
      "nsa": 650,
      "nca": 651,
      "nten": 652,
      "op": 653,
      "ron": 654,
      "rom": 655,
      "rro": 656,
      "sc": 657,
      "st": 658,
      "ste": 659,
      "sse": 660,
      "ssi": 661,
      "tre": 662,
      "tto": 663,
      "ter": 664,
      "tte": 665,
      "tti": 666,
      "tinu": 667,
      "ur": 668,
      "use": 669,
      "uolo": 670,
      "vra": 671,
      "volo": 672,
      "zo": 673,
      "zuolo": 674,
      "ĠI": 675,
      "ĠO": 676,
      "ĠU": 677,
      "Ġon": 678,
      "Ġte": 679,
      "Ġva": 680,
      "Ġro": 681,
      "ĠChi": 682,
      "Ġsin": 683,
      "Ġsto": 684,
      "Ġce": 685,
      "Ġcor": 686,
      "Ġcit": 687,
      "Ġcus": 688,
      "ĠciÃ²": 689,
      "Ġpe": 690,
      "Ġpia": 691,
      "Ġpor": 692,
      "Ġpic": 693,
      "Ġpoi": 694,
      "Ġpote": 695,
      "Ġdia": 696,
      "Ġdor": 697,
      "Ġlen": 698,
      "Ġlui": 699,
      "Ġlente": 700,
      "rebbe": 701,
      "ras": 702,
      "rase": 703,
      "tag": 704,
      "tare": 705,
      "Ġein": 706,
      "Ġeine": 707,
      "Ġerro": 708,
      "Ġap": 709,
      "Ġas": 710,
      "Ġat": 711,
      "Ġacc": 712,
      "Ġapp": 713,
      "Ġauc": 714,
      "Ġabba": 715,
      "ento": 716,
      "rio": 717,
      "riste": 718,
      "todi": 719,
      "mava": 720,
      "Ġnel": 721,
      "Ġnat": 722,
      "Ġnuo": 723,
      "Ġnessuno": 724,
      "arono": 725,
      "ianca": 726,
      "iamava": 727,
      "Ġfiu": 728,
      "Ġfrase": 729,
      "Ġdid": 730,
      "Ġlasc": 731,
      "Ġtono": 732,
      "Ġtira": 733,
      "Ġtreno": 734,
      "Ġtriste": 735,
      "estra": 736,
      "ortava": 737,
      "Ġver": 738,
      "Ġvera": 739,
      "Ġmanten": 740,
      "ombre": 741,
      "dos": 742,
      "elle": 743,
      "Ġriti": 744,
      "Ġripe": 745,
      "Ġsemb": 746,
      "Ġperso": 747,
      "tion": 748,
      "Ġgia": 749,
      "Ġgira": 750,
      "Ġgior": 751,
      "Ġguar": 752,
      "Ġmu": 753,
      "Ġmol": 754,
      "Ġmodo": 755,
      "Ġsilen": 756,
      "Ġlega": 757,
      "Ġpaura": 758,
      "Ġpane": 759,
      "Ġba": 760,
      "Ġbas": 761,
      "Ġbianca": 762,
      "Ġsuo": 763,
      "Ġsur": 764,
      "Ġsulla": 765,
      "Ġcal": 766,
      "Ġcama": 767,
      "Ġcasa": 768,
      "Ġcamm": 769,
      "Ġcansa": 770,
      "Ġof": 771,
      "Ġrefus": 772,
      "ĠMinu": 773,
      "Ġand": 774,
      "Ġanco": 775,
      "Ġquando": 776,
      "Ġhombre": 777,
      "Ġconos": 778,
      "ĠLa": 779,
      "Ġscri": 780,
      "Ġscatto": 781,
      "dere": 782,
      "Ġwat": 783,
      "Ġwas": 784,
      "Ġdella": 785,
      "iste": 786,
      "peva": 787,
      "ĠPer": 788,
      "ĠPoi": 789,
      "ĠSolo": 790,
      "Ġsali": 791,
      "Ġsapeva": 792,
      "Ġfan": 793,
      "glio": 794,
      "mbien": 795,
      "Ġsola": 796,
      "Ġfinestra": 797,
      "Ġquelle": 798,
      "bbia": 799,
      "ccon": 800,
      "itel": 801,
      "lena": 802,
      "uci": 803,
      "Ġtavolo": 804,
      "Ġeste": 805,
      "Ġnotte": 806,
      "Ġmagia": 807,
      "ffio": 808,
      "odore": 809,
      "Ġraccon": 810,
      "Ġnome": 811,
      "Ġnomi": 812,
      "ĠtrovÃ²": 813,
      "Ġpersone": 814,
      "Ġpersona": 815,
      "\"],": 816,
      "umano": 817,
      "Ġspago": 818,
      "Ġsveglia": 819,
      "Ġsotto": 820,
      "Ġstesso": 821,
      "Ġchiamava": 822,
      "Ġpunto": 823,
      "Ġarri": 824,
      "Ġnavi": 825,
      "Ġnebbia": 826,
      "Ġvita": 827,
      "Ġrimandare": 828,
      "Ġsegre": 829,
      "Ġscopri": 830,
      "ĠtornÃ²": 831,
      "Ġproprio": 832,
      "Continu": 833,
      "dele": 834,
      "existe": 835,
      "forme": 836,
      "Ġroman": 837,
      "Ġcustodi": 838,
      "Ġpicc": 839,
      "Ġpoteva": 840,
      "Ġdormi": 841,
      "Ġlenzuolo": 842,
      "Ġaucun": 843,
      "Ġnatura": 844,
      "Ġnuovo": 845,
      "Ġfiume": 846,
      "Ġtirato": 847,
      "Ġmantenendo": 848,
      "Ġritirava": 849,
      "ĠguardÃ²": 850,
      "Ġcammina": 851,
      "Ġrefusing": 852,
      "ĠMinute": 853,
      "Ġancora": 854,
      "mbienta": 855
    },
    "merges": [
      [
        "Ġ",
        "s"
      ],
      [
        "Ġ",
        "c"
      ],
      [
        "Ġ",
        "p"
      ],
      [
        "Ġ",
        "d"
      ],
      [
        "Ġ",
        "l"
      ],
      [
        "r",
        "e"
      ],
      [
        "r",
        "a"
      ],
      [
        "i",
        "n"
      ],
      [
        "t",
        "a"
      ],
      [
        "u",
        "n"
      ],
      [
        "Ġ",
        "e"
      ],
      [
        "o",
        "n"
      ],
      [
        "Ġ",
        "a"
      ],
      [
        "e",
        "n"
      ],
      [
        "r",
        "i"
      ],
      [
        "t",
        "o"
      ],
      [
        "m",
        "a"
      ],
      [
        "Ġ",
        "un"
      ],
      [
        "e",
        "r"
      ],
      [
        "Ġ",
        "n"
      ],
      [
        "a",
        "r"
      ],
      [
        "t",
        "e"
      ],
      [
        "h",
        "e"
      ],
      [
        "v",
        "a"
      ],
      [
        "i",
        "a"
      ],
      [
        "Ġ",
        "f"
      ],
      [
        "q",
        "u"
      ],
      [
        "Ġd",
        "i"
      ],
      [
        "Ġl",
        "a"
      ],
      [
        "Ġ",
        "t"
      ],
      [
        "e",
        "s"
      ],
      [
        "o",
        "l"
      ],
      [
        "Ġ",
        "i"
      ],
      [
        "Ġ",
        "qu"
      ],
      [
        "o",
        "r"
      ],
      [
        "Ġ",
        "v"
      ],
      [
        "Ġ",
        "ma"
      ],
      [
        "n",
        "o"
      ],
      [
        "o",
        "m"
      ],
      [
        "d",
        "o"
      ],
      [
        "Ġc",
        "he"
      ],
      [
        "e",
        "l"
      ],
      [
        "r",
        "o"
      ],
      [
        "i",
        "c"
      ],
      [
        "l",
        "e"
      ],
      [
        "l",
        "i"
      ],
      [
        "Ġi",
        "l"
      ],
      [
        "c",
        "e"
      ],
      [
        "Ġ",
        "in"
      ],
      [
        "Ġ",
        "ri"
      ],
      [
        "Ġs",
        "e"
      ],
      [
        "Ġun",
        "a"
      ],
      [
        "s",
        "e"
      ],
      [
        "Ġp",
        "er"
      ],
      [
        "t",
        "i"
      ],
      [
        "Ã",
        "²"
      ],
      [
        "Ġ",
        "g"
      ],
      [
        "Ġ",
        "m"
      ],
      [
        "Ġs",
        "i"
      ],
      [
        "Ġl",
        "e"
      ],
      [
        "o",
        "u"
      ],
      [
        "Ġp",
        "a"
      ],
      [
        "Ġn",
        "on"
      ],
      [
        "l",
        "a"
      ],
      [
        "v",
        "e"
      ],
      [
        "Ġ",
        "b"
      ],
      [
        "Ġs",
        "u"
      ],
      [
        "Ġc",
        "a"
      ],
      [
        "Ġc",
        "om"
      ],
      [
        "a",
        "t"
      ],
      [
        "d",
        "i"
      ],
      [
        "h",
        "i"
      ],
      [
        "Ġ",
        "o"
      ],
      [
        "Ġ",
        "re"
      ],
      [
        "in",
        "a"
      ],
      [
        "o",
        "t"
      ],
      [
        "s",
        "a"
      ],
      [
        "Ġ",
        "M"
      ],
      [
        "Ġp",
        "i"
      ],
      [
        "ta",
        "n"
      ],
      [
        "Ġa",
        "n"
      ],
      [
        "Ġqu",
        "a"
      ],
      [
        "c",
        "a"
      ],
      [
        "z",
        "a"
      ],
      [
        "Ġ",
        "\""
      ],
      [
        "Ġ",
        "h"
      ],
      [
        "Ġc",
        "on"
      ],
      [
        "Ġd",
        "a"
      ],
      [
        "Ġd",
        "e"
      ],
      [
        "ol",
        "o"
      ],
      [
        "Ġcom",
        "e"
      ],
      [
        "c",
        "h"
      ],
      [
        "g",
        "n"
      ],
      [
        "s",
        "o"
      ],
      [
        "t",
        "en"
      ],
      [
        "Ġ",
        "L"
      ],
      [
        "Ġs",
        "c"
      ],
      [
        "Ġd",
        "o"
      ],
      [
        "Ġe",
        "ra"
      ],
      [
        "b",
        "a"
      ],
      [
        "d",
        "a"
      ],
      [
        "d",
        "e"
      ],
      [
        "g",
        "o"
      ],
      [
        "l",
        "o"
      ],
      [
        "u",
        "i"
      ],
      [
        "Ġ",
        "w"
      ],
      [
        "Ġ",
        "y"
      ],
      [
        "Ġd",
        "el"
      ],
      [
        "in",
        "e"
      ],
      [
        "on",
        "e"
      ],
      [
        "Ġa",
        "l"
      ],
      [
        "ma",
        "n"
      ],
      [
        "ar",
        "ta"
      ],
      [
        "\"",
        ","
      ],
      [
        "g",
        "l"
      ],
      [
        "i",
        "s"
      ],
      [
        "i",
        "t"
      ],
      [
        "m",
        "e"
      ],
      [
        "m",
        "o"
      ],
      [
        "p",
        "e"
      ],
      [
        "p",
        "ri"
      ],
      [
        "u",
        "s"
      ],
      [
        "u",
        "ra"
      ],
      [
        "Ġ",
        "P"
      ],
      [
        "Ġ",
        "S"
      ],
      [
        "Ġs",
        "a"
      ],
      [
        "Ġc",
        "hi"
      ],
      [
        "Ġp",
        "ar"
      ],
      [
        "in",
        "c"
      ],
      [
        "on",
        "o"
      ],
      [
        "ar",
        "o"
      ],
      [
        "Ġf",
        "a"
      ],
      [
        "ĠM",
        "arta"
      ],
      [
        "a",
        "s"
      ],
      [
        "c",
        "ri"
      ],
      [
        "e",
        "ra"
      ],
      [
        "g",
        "li"
      ],
      [
        "i",
        "o"
      ],
      [
        "m",
        "b"
      ],
      [
        "t",
        "ra"
      ],
      [
        "u",
        "o"
      ],
      [
        "Ġ",
        "to"
      ],
      [
        "Ġs",
        "ol"
      ],
      [
        "Ġp",
        "ro"
      ],
      [
        "Ġl",
        "o"
      ],
      [
        "en",
        "t"
      ],
      [
        "en",
        "te"
      ],
      [
        "Ġf",
        "in"
      ],
      [
        "Ġf",
        "aro"
      ],
      [
        "es",
        "e"
      ],
      [
        "Ġqu",
        "el"
      ],
      [
        "gn",
        "i"
      ],
      [
        "b",
        "b"
      ],
      [
        "c",
        "c"
      ],
      [
        "c",
        "he"
      ],
      [
        "d",
        "er"
      ],
      [
        "g",
        "a"
      ],
      [
        "g",
        "e"
      ],
      [
        "i",
        "to"
      ],
      [
        "i",
        "te"
      ],
      [
        "l",
        "en"
      ],
      [
        "m",
        "p"
      ],
      [
        "o",
        "s"
      ],
      [
        "p",
        "p"
      ],
      [
        "s",
        "i"
      ],
      [
        "u",
        "c"
      ],
      [
        "v",
        "i"
      ],
      [
        "Ã",
        "¨"
      ],
      [
        "Ġ",
        "T"
      ],
      [
        "Ġ",
        "ta"
      ],
      [
        "Ġ",
        "Ã¨"
      ],
      [
        "Ġs",
        "tan"
      ],
      [
        "Ġp",
        "en"
      ],
      [
        "ta",
        "va"
      ],
      [
        "Ġe",
        "l"
      ],
      [
        "Ġe",
        "s"
      ],
      [
        "Ġa",
        "v"
      ],
      [
        "Ġn",
        "ot"
      ],
      [
        "Ġt",
        "he"
      ],
      [
        "ol",
        "e"
      ],
      [
        "Ġv",
        "ia"
      ],
      [
        "Ġma",
        "g"
      ],
      [
        "Ġma",
        "re"
      ],
      [
        "ic",
        "o"
      ],
      [
        "ve",
        "va"
      ],
      [
        "Ġo",
        "gni"
      ],
      [
        "Ġpi",
        "u"
      ],
      [
        "Ġh",
        "a"
      ],
      [
        "\"",
        ":"
      ],
      [
        "I",
        "l"
      ],
      [
        "L",
        "a"
      ],
      [
        "a",
        "y"
      ],
      [
        "c",
        "o"
      ],
      [
        "f",
        "f"
      ],
      [
        "h",
        "t"
      ],
      [
        "i",
        "ra"
      ],
      [
        "i",
        "Ã²"
      ],
      [
        "l",
        "la"
      ],
      [
        "n",
        "e"
      ],
      [
        "n",
        "do"
      ],
      [
        "o",
        "i"
      ],
      [
        "o",
        "do"
      ],
      [
        "u",
        "to"
      ],
      [
        "u",
        "ce"
      ],
      [
        "z",
        "za"
      ],
      [
        "Ã",
        "©"
      ],
      [
        "Ã",
        "¬"
      ],
      [
        "Ġ",
        "A"
      ],
      [
        "Ġ",
        "E"
      ],
      [
        "Ġ",
        "j"
      ],
      [
        "Ġ",
        "ra"
      ],
      [
        "Ġl",
        "uce"
      ],
      [
        "re",
        "s"
      ],
      [
        "in",
        "g"
      ],
      [
        "in",
        "u"
      ],
      [
        "un",
        "o"
      ],
      [
        "en",
        "do"
      ],
      [
        "ri",
        "a"
      ],
      [
        "Ġn",
        "om"
      ],
      [
        "te",
        "s"
      ],
      [
        "Ġf",
        "or"
      ],
      [
        "Ġt",
        "h"
      ],
      [
        "Ġt",
        "ro"
      ],
      [
        "es",
        "s"
      ],
      [
        "es",
        "to"
      ],
      [
        "Ġqu",
        "e"
      ],
      [
        "Ġv",
        "uo"
      ],
      [
        "li",
        "s"
      ],
      [
        "ce",
        "va"
      ],
      [
        "Ġse",
        "d"
      ],
      [
        "Ġper",
        "s"
      ],
      [
        "Ġb",
        "e"
      ],
      [
        "Ġcom",
        "inc"
      ],
      [
        "at",
        "to"
      ],
      [
        "Ġre",
        "s"
      ],
      [
        "tan",
        "to"
      ],
      [
        "Ġqua",
        "l"
      ],
      [
        "Ġqua",
        "der"
      ],
      [
        "ĠL",
        "e"
      ],
      [
        "Ġy",
        "ou"
      ],
      [
        "gl",
        "ine"
      ],
      [
        "Ġsol",
        "tanto"
      ],
      [
        "Ġvuo",
        "ta"
      ],
      [
        "Ġcominc",
        "ia"
      ],
      [
        "Ġquader",
        "no"
      ],
      [
        "\"",
        "]"
      ],
      [
        "G",
        "en"
      ],
      [
        "R",
        "e"
      ],
      [
        "T",
        "he"
      ],
      [
        "[",
        "\""
      ],
      [
        "a",
        "lis"
      ],
      [
        "a",
        "gline"
      ],
      [
        "c",
        "or"
      ],
      [
        "c",
        "ca"
      ],
      [
        "g",
        "ina"
      ],
      [
        "g",
        "ht"
      ],
      [
        "i",
        "u"
      ],
      [
        "i",
        "re"
      ],
      [
        "i",
        "or"
      ],
      [
        "i",
        "one"
      ],
      [
        "m",
        "i"
      ],
      [
        "n",
        "a"
      ],
      [
        "n",
        "i"
      ],
      [
        "o",
        "te"
      ],
      [
        "p",
        "o"
      ],
      [
        "t",
        "ta"
      ],
      [
        "u",
        "l"
      ],
      [
        "u",
        "re"
      ],
      [
        "u",
        "ma"
      ],
      [
        "u",
        "ar"
      ],
      [
        "v",
        "o"
      ],
      [
        "v",
        "en"
      ],
      [
        "v",
        "er"
      ],
      [
        "v",
        "Ã²"
      ],
      [
        "z",
        "ione"
      ],
      [
        "Ã",
        "¹"
      ],
      [
        "Ġ",
        "D"
      ],
      [
        "Ġ",
        "J"
      ],
      [
        "Ġ",
        "ou"
      ],
      [
        "Ġ",
        "[\""
      ],
      [
        "Ġs",
        "p"
      ],
      [
        "Ġs",
        "ta"
      ],
      [
        "Ġs",
        "en"
      ],
      [
        "Ġs",
        "ve"
      ],
      [
        "Ġs",
        "ot"
      ],
      [
        "Ġs",
        "tes"
      ],
      [
        "Ġc",
        "h"
      ],
      [
        "Ġc",
        "ar"
      ],
      [
        "Ġc",
        "ui"
      ],
      [
        "Ġp",
        "re"
      ],
      [
        "Ġp",
        "un"
      ],
      [
        "Ġp",
        "ri"
      ],
      [
        "Ġl",
        "un"
      ],
      [
        "re",
        "no"
      ],
      [
        "ra",
        "d"
      ],
      [
        "ra",
        "va"
      ],
      [
        "Ġe",
        "n"
      ],
      [
        "Ġe",
        "t"
      ],
      [
        "on",
        "a"
      ],
      [
        "on",
        "do"
      ],
      [
        "Ġa",
        "r"
      ],
      [
        "Ġa",
        "veva"
      ],
      [
        "Ġun",
        "e"
      ],
      [
        "er",
        "o"
      ],
      [
        "Ġn",
        "a"
      ],
      [
        "Ġn",
        "e"
      ],
      [
        "ar",
        "di"
      ],
      [
        "va",
        "no"
      ],
      [
        "qu",
        "e"
      ],
      [
        "es",
        "cri"
      ],
      [
        "Ġi",
        "t"
      ],
      [
        "Ġqu",
        "esto"
      ],
      [
        "Ġv",
        "i"
      ],
      [
        "Ġv",
        "ol"
      ],
      [
        "Ġma",
        "i"
      ],
      [
        "Ġma",
        "le"
      ],
      [
        "Ġri",
        "man"
      ],
      [
        "Ġri",
        "cor"
      ],
      [
        "Ġse",
        "g"
      ],
      [
        "Ġse",
        "mp"
      ],
      [
        "Ġg",
        "li"
      ],
      [
        "Ġle",
        "i"
      ],
      [
        "ou",
        "r"
      ],
      [
        "Ġpa",
        "ra"
      ],
      [
        "Ġpa",
        "ese"
      ],
      [
        "Ġpa",
        "gina"
      ],
      [
        "Ġsu",
        "a"
      ],
      [
        "Ġca",
        "p"
      ],
      [
        "Ġpi",
        "Ã¹"
      ],
      [
        "Ġan",
        "ni"
      ],
      [
        "ch",
        "Ã©"
      ],
      [
        "Ġsc",
        "o"
      ],
      [
        "Ġdo",
        "ve"
      ],
      [
        "Ġdo",
        "po"
      ],
      [
        "da",
        "re"
      ],
      [
        "Ġw",
        "ay"
      ],
      [
        "gl",
        "ia"
      ],
      [
        "Ġpar",
        "ole"
      ],
      [
        "Ġfa",
        "ceva"
      ],
      [
        "Ġto",
        "r"
      ],
      [
        "Ġpro",
        "pri"
      ],
      [
        "Ġquel",
        "la"
      ],
      [
        "bb",
        "e"
      ],
      [
        "ito",
        "lo"
      ],
      [
        "ĠT",
        "agline"
      ],
      [
        "Ġstan",
        "za"
      ],
      [
        "Ġmag",
        "ico"
      ],
      [
        "Ġha",
        "d"
      ],
      [
        "ess",
        "uno"
      ],
      [
        "Ġsed",
        "ia"
      ],
      [
        "alis",
        "mo"
      ],
      [
        "Ġpri",
        "ma"
      ],
      [
        "Ġlun",
        "go"
      ],
      [
        "ardi",
        "m"
      ],
      [
        "Ġsemp",
        "re"
      ],
      [
        "C",
        "on"
      ],
      [
        "C",
        "hi"
      ],
      [
        "E",
        "l"
      ],
      [
        "S",
        "a"
      ],
      [
        "S",
        "cri"
      ],
      [
        "T",
        "itolo"
      ],
      [
        "a",
        "go"
      ],
      [
        "b",
        "re"
      ],
      [
        "b",
        "ba"
      ],
      [
        "c",
        "io"
      ],
      [
        "d",
        "ri"
      ],
      [
        "d",
        "el"
      ],
      [
        "d",
        "ic"
      ],
      [
        "d",
        "Ã²"
      ],
      [
        "e",
        "h"
      ],
      [
        "e",
        "p"
      ],
      [
        "e",
        "x"
      ],
      [
        "e",
        "re"
      ],
      [
        "e",
        "di"
      ],
      [
        "e",
        "de"
      ],
      [
        "f",
        "a"
      ],
      [
        "f",
        "o"
      ],
      [
        "f",
        "or"
      ],
      [
        "f",
        "us"
      ],
      [
        "g",
        "g"
      ],
      [
        "g",
        "i"
      ],
      [
        "g",
        "ra"
      ],
      [
        "g",
        "ge"
      ],
      [
        "i",
        "en"
      ],
      [
        "i",
        "ght"
      ],
      [
        "l",
        "ia"
      ],
      [
        "l",
        "le"
      ],
      [
        "m",
        "m"
      ],
      [
        "m",
        "es"
      ],
      [
        "m",
        "ent"
      ],
      [
        "n",
        "d"
      ],
      [
        "n",
        "ic"
      ],
      [
        "n",
        "Ã²"
      ],
      [
        "n",
        "sa"
      ],
      [
        "n",
        "ca"
      ],
      [
        "n",
        "ten"
      ],
      [
        "o",
        "p"
      ],
      [
        "r",
        "on"
      ],
      [
        "r",
        "om"
      ],
      [
        "r",
        "ro"
      ],
      [
        "s",
        "c"
      ],
      [
        "s",
        "t"
      ],
      [
        "s",
        "te"
      ],
      [
        "s",
        "se"
      ],
      [
        "s",
        "si"
      ],
      [
        "t",
        "re"
      ],
      [
        "t",
        "to"
      ],
      [
        "t",
        "er"
      ],
      [
        "t",
        "te"
      ],
      [
        "t",
        "ti"
      ],
      [
        "t",
        "inu"
      ],
      [
        "u",
        "r"
      ],
      [
        "u",
        "se"
      ],
      [
        "u",
        "olo"
      ],
      [
        "v",
        "ra"
      ],
      [
        "v",
        "olo"
      ],
      [
        "z",
        "o"
      ],
      [
        "z",
        "uolo"
      ],
      [
        "Ġ",
        "I"
      ],
      [
        "Ġ",
        "O"
      ],
      [
        "Ġ",
        "U"
      ],
      [
        "Ġ",
        "on"
      ],
      [
        "Ġ",
        "te"
      ],
      [
        "Ġ",
        "va"
      ],
      [
        "Ġ",
        "ro"
      ],
      [
        "Ġ",
        "Chi"
      ],
      [
        "Ġs",
        "in"
      ],
      [
        "Ġs",
        "to"
      ],
      [
        "Ġc",
        "e"
      ],
      [
        "Ġc",
        "or"
      ],
      [
        "Ġc",
        "it"
      ],
      [
        "Ġc",
        "us"
      ],
      [
        "Ġc",
        "iÃ²"
      ],
      [
        "Ġp",
        "e"
      ],
      [
        "Ġp",
        "ia"
      ],
      [
        "Ġp",
        "or"
      ],
      [
        "Ġp",
        "ic"
      ],
      [
        "Ġp",
        "oi"
      ],
      [
        "Ġp",
        "ote"
      ],
      [
        "Ġd",
        "ia"
      ],
      [
        "Ġd",
        "or"
      ],
      [
        "Ġl",
        "en"
      ],
      [
        "Ġl",
        "ui"
      ],
      [
        "Ġl",
        "ente"
      ],
      [
        "re",
        "bbe"
      ],
      [
        "ra",
        "s"
      ],
      [
        "ra",
        "se"
      ],
      [
        "ta",
        "g"
      ],
      [
        "ta",
        "re"
      ],
      [
        "Ġe",
        "in"
      ],
      [
        "Ġe",
        "ine"
      ],
      [
        "Ġe",
        "rro"
      ],
      [
        "Ġa",
        "p"
      ],
      [
        "Ġa",
        "s"
      ],
      [
        "Ġa",
        "t"
      ],
      [
        "Ġa",
        "cc"
      ],
      [
        "Ġa",
        "pp"
      ],
      [
        "Ġa",
        "uc"
      ],
      [
        "Ġa",
        "bba"
      ],
      [
        "en",
        "to"
      ],
      [
        "ri",
        "o"
      ],
      [
        "ri",
        "ste"
      ],
      [
        "to",
        "di"
      ],
      [
        "ma",
        "va"
      ],
      [
        "Ġn",
        "el"
      ],
      [
        "Ġn",
        "at"
      ],
      [
        "Ġn",
        "uo"
      ],
      [
        "Ġn",
        "essuno"
      ],
      [
        "ar",
        "ono"
      ],
      [
        "ia",
        "nca"
      ],
      [
        "ia",
        "mava"
      ],
      [
        "Ġf",
        "iu"
      ],
      [
        "Ġf",
        "rase"
      ],
      [
        "Ġdi",
        "d"
      ],
      [
        "Ġla",
        "sc"
      ],
      [
        "Ġt",
        "ono"
      ],
      [
        "Ġt",
        "ira"
      ],
      [
        "Ġt",
        "reno"
      ],
      [
        "Ġt",
        "riste"
      ],
      [
        "es",
        "tra"
      ],
      [
        "or",
        "tava"
      ],
      [
        "Ġv",
        "er"
      ],
      [
        "Ġv",
        "era"
      ],
      [
        "Ġma",
        "nten"
      ],
      [
        "om",
        "bre"
      ],
      [
        "do",
        "s"
      ],
      [
        "el",
        "le"
      ],
      [
        "Ġri",
        "ti"
      ],
      [
        "Ġri",
        "pe"
      ],
      [
        "Ġse",
        "mb"
      ],
      [
        "Ġper",
        "so"
      ],
      [
        "ti",
        "on"
      ],
      [
        "Ġg",
        "ia"
      ],
      [
        "Ġg",
        "ira"
      ],
      [
        "Ġg",
        "ior"
      ],
      [
        "Ġg",
        "uar"
      ],
      [
        "Ġm",
        "u"
      ],
      [
        "Ġm",
        "ol"
      ],
      [
        "Ġm",
        "odo"
      ],
      [
        "Ġsi",
        "len"
      ],
      [
        "Ġle",
        "ga"
      ],
      [
        "Ġpa",
        "ura"
      ],
      [
        "Ġpa",
        "ne"
      ],
      [
        "Ġb",
        "a"
      ],
      [
        "Ġb",
        "as"
      ],
      [
        "Ġb",
        "ianca"
      ],
      [
        "Ġsu",
        "o"
      ],
      [
        "Ġsu",
        "r"
      ],
      [
        "Ġsu",
        "lla"
      ],
      [
        "Ġca",
        "l"
      ],
      [
        "Ġca",
        "ma"
      ],
      [
        "Ġca",
        "sa"
      ],
      [
        "Ġca",
        "mm"
      ],
      [
        "Ġca",
        "nsa"
      ],
      [
        "Ġo",
        "f"
      ],
      [
        "Ġre",
        "fus"
      ],
      [
        "ĠM",
        "inu"
      ],
      [
        "Ġan",
        "d"
      ],
      [
        "Ġan",
        "co"
      ],
      [
        "Ġqua",
        "ndo"
      ],
      [
        "Ġh",
        "ombre"
      ],
      [
        "Ġcon",
        "os"
      ],
      [
        "ĠL",
        "a"
      ],
      [
        "Ġsc",
        "ri"
      ],
      [
        "Ġsc",
        "atto"
      ],
      [
        "de",
        "re"
      ],
      [
        "Ġw",
        "at"
      ],
      [
        "Ġw",
        "as"
      ],
      [
        "Ġdel",
        "la"
      ],
      [
        "is",
        "te"
      ],
      [
        "pe",
        "va"
      ],
      [
        "ĠP",
        "er"
      ],
      [
        "ĠP",
        "oi"
      ],
      [
        "ĠS",
        "olo"
      ],
      [
        "Ġsa",
        "li"
      ],
      [
        "Ġsa",
        "peva"
      ],
      [
        "Ġfa",
        "n"
      ],
      [
        "gli",
        "o"
      ],
      [
        "mb",
        "ien"
      ],
      [
        "Ġsol",
        "a"
      ],
      [
        "Ġfin",
        "estra"
      ],
      [
        "Ġquel",
        "le"
      ],
      [
        "bb",
        "ia"
      ],
      [
        "cc",
        "on"
      ],
      [
        "ite",
        "l"
      ],
      [
        "len",
        "a"
      ],
      [
        "uc",
        "i"
      ],
      [
        "Ġta",
        "volo"
      ],
      [
        "Ġes",
        "te"
      ],
      [
        "Ġnot",
        "te"
      ],
      [
        "Ġmag",
        "ia"
      ],
      [
        "ff",
        "io"
      ],
      [
        "odo",
        "re"
      ],
      [
        "Ġra",
        "ccon"
      ],
      [
        "Ġnom",
        "e"
      ],
      [
        "Ġnom",
        "i"
      ],
      [
        "Ġtro",
        "vÃ²"
      ],
      [
        "Ġpers",
        "one"
      ],
      [
        "Ġpers",
        "ona"
      ],
      [
        "\"]",
        ","
      ],
      [
        "uma",
        "no"
      ],
      [
        "Ġsp",
        "ago"
      ],
      [
        "Ġsve",
        "glia"
      ],
      [
        "Ġsot",
        "to"
      ],
      [
        "Ġstes",
        "so"
      ],
      [
        "Ġch",
        "iamava"
      ],
      [
        "Ġpun",
        "to"
      ],
      [
        "Ġar",
        "ri"
      ],
      [
        "Ġna",
        "vi"
      ],
      [
        "Ġne",
        "bbia"
      ],
      [
        "Ġvi",
        "ta"
      ],
      [
        "Ġriman",
        "dare"
      ],
      [
        "Ġseg",
        "re"
      ],
      [
        "Ġsco",
        "pri"
      ],
      [
        "Ġtor",
        "nÃ²"
      ],
      [
        "Ġpropri",
        "o"
      ],
      [
        "Con",
        "tinu"
      ],
      [
        "del",
        "e"
      ],
      [
        "ex",
        "iste"
      ],
      [
        "for",
        "me"
      ],
      [
        "Ġro",
        "man"
      ],
      [
        "Ġcus",
        "todi"
      ],
      [
        "Ġpic",
        "c"
      ],
      [
        "Ġpote",
        "va"
      ],
      [
        "Ġdor",
        "mi"
      ],
      [
        "Ġlen",
        "zuolo"
      ],
      [
        "Ġauc",
        "un"
      ],
      [
        "Ġnat",
        "ura"
      ],
      [
        "Ġnuo",
        "vo"
      ],
      [
        "Ġfiu",
        "me"
      ],
      [
        "Ġtira",
        "to"
      ],
      [
        "Ġmanten",
        "endo"
      ],
      [
        "Ġriti",
        "rava"
      ],
      [
        "Ġguar",
        "dÃ²"
      ],
      [
        "Ġcamm",
        "ina"
      ],
      [
        "Ġrefus",
        "ing"
      ],
      [
        "ĠMinu",
        "te"
      ],
      [
        "Ġanco",
        "ra"
      ],
      [
        "mbien",
        "ta"
      ]
    ]
  }
}